3e78d4fe
3e96fd22
be1fa440
bd15182b
bd9f212d
3e5e9e1b
bde31f8a
be51b717
3e5fd8ae
3e9bda51
be771759
be3e2824
3e828241
3e92a305
3e828f5c
bdedfa44
3d8bac71
3e96ae7d
3bff9724
3e504817
be5cac08
3dc9ba5e
be371759
3dab020c
3caf4f0e
be11b717
bc6d9168
be93c361
3dbcd35b
3e8e48e9
be8faace
3e091d15
3e9ce076
bea902de
3e99a6b5
3e072b02
be8a0903
3e21cac1
be83f141
bd6075f7
3e8cf41f
3d271de7
3e386c22
be83fe5d
3ea7fcb9
3e9da512
3ea2339c
bd514e3c
3dfe9100
3dd0e560
be92d773
be89374c
3ddc28f6
be486595
be61ff2e
be5e1b09
3da9fbe7
be8e3bcd
be85a1cb
be427525
3e80c49c
3daeb1c4
3db18fc5
bcee6320
3e885879
be941f21
3e7e0ded
3eaa8c15
3d49eecc
bdd91687
bdb95810
bc8c154d
be9c779a
be4e5604
3e5a36e3
bc4b295f
3e1652bd
3e20ded3
3e04816f
3e8872b0
3e4f5c29
3ea0f909
3dd1b717
be0ff972
3e0af4f1
be941206
3d172474
3e025aee
3d7559b4
be2a161e
3dca8c15
3d12a305
3e20902e
3e998c7e
bd954c98
be153261
3e22eb1c
be932618
bea0ded3
be23a29c
3e825aee
bdd35a86
bea04189
be60c49c
bcf0068e
be6b6ae8
be36c8b4
be343958
3e0816f0
3dd5cfab
3d978d50
be647454
3e6161e5
3d7cb924
3e0fdf3b
3e34d6a1
3de17c1c
3e87a0f9
be3295ea
3d2a64c3
3d2d42c4
bdd460aa
bddee289
3dca57a8
bcacd9e8
be371759
3e808312
bd769446
3d9ce076
bd53c361
be8872b0
be8147ae
bdc5d639
be8e703b
3e02de01
3e97a787
3e39db23
bde872b0
3dc538ef
3db18fc5
be0ce704
be972474
3e4538ef
3d8ded29
be57f62b
be7923a3
bdb4a234
3d3367a1
3e765fd9
3e5fbe77
be60902e
bc47e282
be90f27c
3d99ce07
3e944674
3e773190
bdd81062
3d6631f9
be652bd4
3ea67382
bea8a71e
bd9758e2
be381d7e
be4faa2e
3e02f838
3e84ea4b
3d57dbf5
3e96fd22
3e9367a1
bc449ba6
be142c3d
3d2e147b
bac49ba6
3e3d8adb
3e5e83e4
be582a99
3ea3f141
be95dcc6
be9645a2
3dd9b3d0
3e24c2f8
3e1a0275
bd9de69b
bdd21ff3
3e8d844d
3ea72b02
bde7381d
3e0624dd
bd3d3c36
be6cbfb1
be530be1
3d7e5c92
bd42f838
3de66666
3e81f213
3d7b15b5
3e388659
3eb03afb
bd69e1b1
be9e425b
be8ce704
be99c0ec
3e0710cb
3c7765fe
bd016f00
3e8f0069
be963886
3df4538f
3e2f837b
bd7212d7
be866666
3e294467
3da0902e
3d6ab368
be7318fc
3e85f06f
be5a8588
3d1e83e4
3e9fb15b
3e9566cf
bea58794
be467382
3e37e910
bd350b0f
3e5a8588
bd9b7176
bc6f34d7
be6c2268
3d84b5dd
3db98c7e
bc8c154d
be8ff972
3e141206
3e2bb98c
3e0a233a
3e82f838
bc75c28f
3e0ccccd
3d9cac08
be26e979
be3a0f91
bddb573f
bd6bedfa
bd656042
be1ad42c
be80c49c
3eaae7d5
3ddd6388
3e821965
3e245a1d
3e8b7803
bea7d567
bd9eb852
be0e3bcd
be8ccccd
3e624dd3
3ea76c8b
bd229c78
be82c3ca
bcd77319
be004ea5
be14c986
beaa0903
3d7cb924
3d926e98
be89ba5e
3e53c361
be973190
bdc0b780
bddb8bac
bdd288ce
bd714120
3e31a9fc
3e55b574
be602752
bcb851ec
3e3c01a3
3e99a6b5
3b96bb99
be11d14e
be93eab3
bd70068e
be67ef9e
be851eb8
3d0240b8
3e80346e
3ea5119d
3de3f141
