be016f00
3dcdc2f2
be05a1cb
bdd66cf4
bdef3b64
3e9851ec
3e1f559b
3e116873
3e9b98c8
3c1a0275
3ce075f7
3e87fcb9
3e752546
bdf318fc
bdbfb15b
bc3923a3
be7e425b
3da5e354
bea72b02
3ea0ded3
3e3fe5c9
3dadab9f
3e5b3d08
bd93a92a
3b8ce704
be8cf41f
3e2a9931
be276c8b
3c3ac711
3d9374bc
be9bc01a
be468db9
